<pad>	0
<unk>	0
<s>	0
</s>	0
an	-0
ta	-1
ch	-2
pa	-3
ku	-4
os	-5
▁d	-6
na	-7
▁e	-8
▁a	-9
qa	-10
▁l	-11
▁s	-12
as	-13
▁c	-14
▁m	-15
er	-16
▁p	-17
es	-18
in	-19
ay	-20
▁h	-21
▁de	-22
en	-23
qu	-24
ar	-25
on	-26
▁r	-27
▁k	-28
▁qu	-29
▁y	-30
▁n	-31
ll	-32
man	-33
chi	-34
kuna	-35
▁t	-36
is	-37
or	-38
im	-39
un	-40
ci	-41
▁que	-42
▁es	-43
▁pa	-44
ra	-45
▁di	-46
▁j	-47
mi	-48
qan	-49
pi	-50
▁la	-51
▁en	-52
ana	-53
▁ch	-54
chik	-55
ti	-56
cha	-57
do	-58
▁dios	-59
wan	-60
re	-61
li	-62
te	-63
am	-64
pas	-65
manta	-66
paq	-67
▁w	-68
▁con	-69
una	-70
▁su	-71
ina	-72
▁el	-73
▁chay	-74
da	-75
em	-76
▁v	-77
▁b	-78
▁im	-79
kuy	-80
to	-81
ov	-82
▁hina	-83
om	-84
us	-85
▁se	-86
▁mana	-87
aq	-88
ur	-89
▁f	-90
▁los	-91
▁je	-92
▁jeh	-93
al	-94
▁jehov	-95
▁re	-96
▁ha	-97
ri	-98
di	-99
tam	-100
▁o	-101
▁1	-102
ón	-103
▁i	-104
lla	-105
ien	-106
asqan	-107
▁ya	-108
▁ll	-109
ki	-110
tr	-111
pan	-112
▁por	-113
▁qa	-114
ña	-115
▁pr	-116
chu	-117
nin	-118
taq	-119
▁ka	-120
lo	-121
kus	-122
▁all	-123
▁si	-124
▁al	-125
▁jehová	-126
▁wa	-127
▁un	-128
ue	-129
rqa	-130
▁cu	-131
▁no	-132
ib	-133
▁hu	-134
kun	-135
ía	-136
▁ima	-137
▁g	-138
tu	-139
▁allin	-140
ab	-141
tin	-142
kunata	-143
▁ta	-144
spa	-145
anku	-146
emp	-147
uy	-148
▁jes	-149
▁le	-150
ción	-151
vi	-152
▁per	-153
▁las	-154
arqa	-155
de	-156
▁hinaspa	-157
▁runa	-158
▁lo	-159
▁as	-160
dad	-161
▁com	-162
▁nis	-163
▁para	-164
ca	-165
lia	-166
▁an	-167
▁kay	-168
▁ser	-169
bi	-170
▁in	-171
chk	-172
emos	-173
▁qué	-174
▁ti	-175
▁ni	-176
▁bib	-177
anchik	-178
asqa	-179
ás	-180
tan	-181
▁q	-182
ues	-183
▁tu	-184
ptin	-185
▁2	-186
el	-187
▁chayna	-188
▁nos	-189
od	-190
▁biblia	-191
▁diospa	-192
ente	-193
cion	-194
▁pay	-195
ris	-196
se	-197
iy	-198
▁del	-199
▁una	-200
pay	-201
▁yana	-202
▁wi	-203
mo	-204
▁vi	-205
▁ru	-206
▁kan	-207
ce	-208
▁kasqan	-209
le	-210
cer	-211
▁-	-212
▁pre	-213
ayna	-214
ando	-215
▁mi	-216
cu	-217
▁des	-218
gu	-219
▁sa	-220
tar	-221
la	-222
▁qaw	-223
▁ma	-224
▁am	-225
achi	-226
▁yach	-227
▁huk	-228
ob	-229
▁imayna	-230
tra	-231
▁tiemp	-232
kunaqa	-233
án	-234
▁mu	-235
ec	-236
▁yacha	-237
▁me	-238
fi	-239
▁manam	-240
▁cris	-241
▁sus	-242
tos	-243
▁nispa	-244
▁rur	-245
ona	-246
go	-247
▁muna	-248
ga	-249
▁kaq	-250
oq	-251
sa	-252
ayku	-253
▁como	-254
tas	-255
▁ap	-256
dos	-257
▁jesus	-258
ter	-259
▁is	-260
▁man	-261
pim	-262
▁ten	-263
kuq	-264
▁runakuna	-265
▁tiempo	-266
cia	-267
▁icha	-268
▁na	-269
tes	-270
▁jehova	-271
▁ri	-272
jo	-273
ten	-274
▁res	-275
pu	-276
▁hab	-277
▁nues	-278
ankupaq	-279
▁ay	-280
▁hi	-281
amos	-282
ol	-283
▁ex	-284
era	-285
▁más	-286
ora	-287
anpaq	-288
▁iñ	-289
ari	-290
▁pi	-291
▁yachachi	-292
ús	-293
▁karqa	-294
én	-295
▁kas	-296
res	-297
ba	-298
ro	-299
que	-300
▁jesús	-301
▁kaw	-302
za	-303
▁pro	-304
asa	-305
gi	-306
ka	-307
kin	-308
▁cristi	-309
kusqan	-310
▁é	-311
▁yanapa	-312
▁3	-313
▁ichaqa	-314
▁willa	-315
▁esp	-316
ran	-317
taqa	-318
▁pue	-319
ante	-320
▁rim	-321
▁ruw	-322
mas	-323
▁to	-324
▁pun	-325
▁pod	-326
▁nin	-327
▁sal	-328
tros	-329
▁pacha	-330
▁có	-331
taqmi	-332
▁son	-333
▁ver	-334
mos	-335
▁esta	-336
▁cuando	-337
ma	-338
▁cómo	-339
▁él	-340
▁cristian	-341
▁pero	-342
▁kall	-343
▁kuy	-344
co	-345
tapas	-346
▁ad	-347
les	-348
▁servi	-349
yta	-350
kurqa	-351
uq	-352
ud	-353
chin	-354
▁est	-355
rayku	-356
niy	-357
yki	-358
▁tukuy	-359
▁nirqa	-360
▁much	-361
▁lla	-362
iq	-363
▁sin	-364
▁hay	-365
▁pe	-366
▁kus	-367
▁diosta	-368
▁pers	-369
▁ca	-370
tro	-371
blo	-372
▁her	-373
ciones	-374
▁deb	-375
ño	-376
▁kallpan	-377
▁pien	-378
▁tra	-379
▁chaymi	-380
chka	-381
ritu	-382
▁fa	-383
sqan	-384
▁wata	-385
▁wañ	-386
▁estu	-387
▁dis	-388
▁mis	-389
▁ar	-390
▁war	-391
▁nisqan	-392
bre	-393
▁ej	-394
ir	-395
▁llaq	-396
▁persona	-397
▁ac	-398
▁ña	-399
wanchik	-400
kay	-401
▁kam	-402
▁ve	-403
▁mun	-404
▁iñiq	-405
ían	-406
esti	-407
▁ob	-408
car	-409
tad	-410
masin	-411
▁tod	-412
der	-413
▁diosqa	-414
▁lle	-415
▁mo	-416
gun	-417
▁iman	-418
▁piens	-419
panku	-420
▁kaws	-421
▁wakin	-422
▁pas	-423
▁cas	-424
▁kamachi	-425
▁estudi	-426
▁predi	-427
chkan	-428
mp	-429
▁ancha	-430
tawan	-431
lab	-432
▁yuy	-433
asun	-434
llan	-435
▁resp	-436
qanchik	-437
▁tari	-438
vo	-439
ren	-440
si	-441
ier	-442
▁cos	-443
▁lib	-444
uc	-445
▁hacer	-446
▁esc	-447
den	-448
eces	-449
▁tam	-450
ama	-451
▁ejemp	-452
kunapa	-453
qani	-454
chwan	-455
kuynin	-456
▁imanasqa	-457
asqanchik	-458
▁vida	-459
gar	-460
▁palab	-461
kunamanta	-462
oy	-463
lar	-464
ones	-465
kur	-466
▁us	-467
▁sasa	-468
kuta	-469
▁imp	-470
▁sob	-471
um	-472
▁pablo	-473
▁herman	-474
va	-475
ni	-476
▁les	-477
los	-478
kunapi	-479
gre	-480
bién	-481
▁espi	-482
▁también	-483
anapaq	-484
▁pu	-485
aspa	-486
enta	-487
tor	-488
▁4	-489
▁este	-490
▁qe	-491
▁da	-492
isqa	-493
▁kasu	-494
qnin	-495
▁ju	-496
mantapas	-497
▁he	-498
▁fu	-499
isi	-500
▁iñiqmasin	-501
▁ab	-502
▁tan	-503
▁aswan	-504
eron	-505
▁achka	-506
▁qati	-507
▁todo	-508
▁fe	-509
▁ku	-510
és	-511
chaw	-512
▁imaynatam	-513
urqa	-514
▁sab	-515
▁allinta	-516
zo	-517
▁así	-518
nos	-519
ayta	-520
ino	-521
▁chur	-522
▁cre	-523
ero	-524
▁ati	-525
kunawan	-526
tun	-527
▁cam	-528
raq	-529
grega	-530
▁ent	-531
kunam	-532
kunan	-533
ara	-534
▁sobre	-535
▁congrega	-536
▁ejemplo	-537
jos	-538
▁otaq	-539
ras	-540
wa	-541
▁par	-542
ías	-543
▁fami	-544
▁so	-545
▁tien	-546
llos	-547
▁ayud	-548
llqa	-549
idad	-550
▁nacion	-551
▁19	-552
▁kasqanta	-553
io	-554
▁imatam	-555
lidad	-556
ayki	-557
kunapaq	-558
ia	-559
▁testi	-560
▁personas	-561
▁ki	-562
ños	-563
▁sonq	-564
▁sasacha	-565
▁pad	-566
▁muy	-567
▁llam	-568
bli	-569
▁u	-570
▁todos	-571
▁kallpancha	-572
erra	-573
▁5	-574
gra	-575
▁sen	-576
chan	-577
▁bien	-578
▁neces	-579
gos	-580
ninchik	-581
▁exp	-582
▁6	-583
▁cristiano	-584
niyoq	-585
▁isra	-586
▁tayta	-587
tras	-588
zar	-589
▁diosmanta	-590
piqa	-591
▁iñiqmasinchik	-592
▁espiritu	-593
▁may	-594
▁suti	-595
▁or	-596
ces	-597
▁verdad	-598
ey	-599
ver	-600
▁punchaw	-601
▁sapa	-602
▁puede	-603
▁astawan	-604
▁eso	-605
▁uy	-606
uda	-607
▁pachapi	-608
▁cor	-609
▁kaptin	-610
anta	-611
kuspa	-612
▁qo	-613
▁cosas	-614
▁fi	-615
▁maña	-616
aspan	-617
▁está	-618
▁quien	-619
mente	-620
cho	-621
ombre	-622
▁era	-623
encia	-624
gina	-625
qay	-626
▁car	-627
cos	-628
▁ra	-629
▁señ	-630
ores	-631
par	-632
mantam	-633
00	-634
▁san	-635
▁ense	-636
▁kuti	-637
tim	-638
anqa	-639
▁ba	-640
tien	-641
▁llaqta	-642
▁iskay	-643
ará	-644
▁for	-645
ted	-646
waq	-647
▁usted	-648
▁ñaw	-649
cen	-650
fec	-651
▁was	-652
pipas	-653
ales	-654
▁nuestra	-655
▁dijo	-656
▁ben	-657
▁comp	-658
anchikpaq	-659
▁pen	-660
▁kayna	-661
▁ci	-662
▁jesuspa	-663
▁men	-664
▁deci	-665
▁tante	-666
cur	-667
kuyta	-668
▁hinam	-669
▁mal	-670
▁qawachi	-671
▁podemos	-672
raykum	-673
cian	-674
ru	-675
▁ño	-676
▁fue	-677
▁había	-678
uni	-679
ja	-680
▁15	-681
▁sig	-682
tol	-683
▁porque	-684
▁chaynataq	-685
▁kusi	-686
▁kuya	-687
▁qall	-688
▁llum	-689
cas	-690
▁yaqa	-691
isqan	-692
▁rey	-693
aba	-694
▁wañu	-695
kum	-696
▁7	-697
▁qawa	-698
▁amis	-699
▁noso	-700
ún	-701
▁mundo	-702
cio	-703
ñam	-704
▁sum	-705
▁nosotros	-706
▁satan	-707
▁cump	-708
▁te	-709
▁amistad	-710
kunaman	-711
▁ellos	-712
▁lu	-713
▁payqa	-714
vos	-715
das	-716
ern	-717
▁chas	-718
asta	-719
▁punta	-720
▁han	-721
▁rec	-722
▁confi	-723
▁kunan	-724
▁años	-725
ento	-726
▁go	-727
po	-728
▁gran	-729
▁vez	-730
▁hermanos	-731
▁8	-732
vid	-733
▁ancian	-734
▁nuestro	-735
▁cristianos	-736
▁huñ	-737
▁kawsa	-738
▁12	-739
▁pues	-740
▁prim	-741
▁amor	-742
▁impor	-743
▁nue	-744
▁sumaq	-745
▁munay	-746
asqanku	-747
tó	-748
chá	-749
▁casa	-750
▁ham	-751
▁escri	-752
gan	-753
arqaku	-754
tir	-755
yá	-756
chikqa	-757
▁llumpay	-758
▁día	-759
▁prom	-760
▁dice	-761
wanmi	-762
kunapas	-763
me	-764
▁cambi	-765
ariy	-766
▁che	-767
je	-768
▁gu	-769
iente	-770
eran	-771
cias	-772
▁segu	-773
sqa	-774
▁hatun	-775
▁tierra	-776
▁debemos	-777
▁10	-778
▁11	-779
ligi	-780
▁conse	-781
aron	-782
▁aun	-783
osa	-784
▁pres	-785
amente	-786
mantaqa	-787
▁yu	-788
ul	-789
zón	-790
▁entre	-791
▁qellqa	-792
▁9	-793
▁medi	-794
▁inter	-795
▁respe	-796
▁cono	-797
▁sasachakuy	-798
ven	-799
▁dem	-800
▁entien	-801
▁qui	-802
qui	-803
▁qi	-804
▁religi	-805
▁espí	-806
▁hijos	-807
tante	-808
▁pregun	-809
▁yuyay	-810
ís	-811
▁solo	-812
▁saq	-813
▁reino	-814
can	-815
▁14	-816
empre	-817
▁siempre	-818
▁jesusqa	-819
▁yachay	-820
▁ven	-821
kama	-822
ya	-823
kunku	-824
▁wiñ	-825
▁necesi	-826
araq	-827
▁llapa	-828
▁po	-829
ptinmi	-830
▁espíritu	-831
oso	-832
fer	-833
tamos	-834
aypaq	-835
▁yachachikuy	-836
▁cristo	-837
kunatam	-838
▁tom	-839
▁familia	-840
kunanchik	-841
qap	-842
▁20	-843
▁seg	-844
kichik	-845
▁dec	-846
chay	-847
▁rimay	-848
rqaku	-849
anaq	-850
ñataqmi	-851
▁lli	-852
pti	-853
▁runakunata	-854
▁chuy	-855
▁bue	-856
▁ah	-857
▁cons	-858
llam	-859
▁munasqan	-860
▁llaqtan	-861
íbli	-862
▁qatiqnin	-863
▁buena	-864
▁huñuna	-865
▁leey	-866
ría	-867
▁agra	-868
▁bíbli	-869
ble	-870
▁ñak	-871
risto	-872
ray	-873
▁mej	-874
ciona	-875
▁hanaq	-876
▁pan	-877
ión	-878
▁dej	-879
▁reci	-880
for	-881
tí	-882
cl	-883
▁val	-884
▁yachan	-885
iento	-886
▁mismo	-887
▁gobi	-888
ptinqa	-889
▁yupay	-890
▁lliw	-891
▁13	-892
▁pasa	-893
▁mucho	-894
▁hasta	-895
▁jesuc	-896
▁mar	-897
▁kusisqa	-898
▁israel	-899
▁hucha	-900
▁prob	-901
▁imapas	-902
▁jesucristo	-903
▁contr	-904
▁algun	-905
▁david	-906
▁otros	-907
▁libro	-908
▁co	-909
▁hayka	-910
▁pos	-911
▁ayuda	-912
▁ruran	-913
▁apren	-914
▁iñiy	-915
▁ruwan	-916
▁toda	-917
imo	-918
lem	-919
endo	-920
▁alg	-921
▁req	-922
arse	-923
▁congregación	-924
chikta	-925
dro	-926
▁tapu	-927
manku	-928
▁pens	-929
erte	-930
▁warmi	-931
tur	-932
curs	-933
▁kachkan	-934
▁qawachin	-935
ac	-936
▁padre	-937
▁gra	-938
▁bu	-939
eli	-940
▁cumpli	-941
▁quienes	-942
▁jer	-943
ista	-944
▁enseñ	-945
▁sonqo	-946
▁sutiy	-947
▁tiene	-948
▁ese	-949
▁bibliapa	-950
imos	-951
▁algunos	-952
pués	-953
▁después	-954
ado	-955
▁muchos	-956
▁gen	-957
omb	-958
▁qam	-959
▁rik	-960
▁emp	-961
chasqa	-962
▁chaymantapas	-963
▁bau	-964
anmanta	-965
kuspan	-966
▁kasqanmanta	-967
ós	-968
▁cheqap	-969
ban	-970
▁tener	-971
▁yanapan	-972
▁law	-973
▁sier	-974
▁tiempopi	-975
▁señor	-976
▁cora	-977
▁esto	-978
▁chuya	-979
▁mejor	-980
▁ñ	-981
▁kanqa	-982
dor	-983
char	-984
▁hecho	-985
▁imanasqataq	-986
rá	-987
▁ayudar	-988
eros	-989
▁mas	-990
▁ro	-991
▁decir	-992
▁ruray	-993
▁aunque	-994
▁human	-995
kumanta	-996
▁prof	-997
▁predic	-998
per	-999
▁llaki	-1000
llq	-1001
▁hombre	-1002
▁rela	-1003
▁hijo	-1004
▁ahora	-1005
culo	-1006
▁churin	-1007
▁apa	-1008
▁prov	-1009
▁quer	-1010
wasqanchik	-1011
ve	-1012
▁antes	-1013
ación	-1014
▁dese	-1015
▁cier	-1016
▁hinalla	-1017
▁imatapas	-1018
tado	-1019
▁kar	-1020
▁tar	-1021
▁pá	-1022
▁tal	-1023
usqan	-1024
alidad	-1025
▁palabra	-1026
ete	-1027
cí	-1028
▁após	-1029
▁gobiern	-1030
entes	-1031
ias	-1032
▁cui	-1033
▁demos	-1034
▁corazón	-1035
▁18	-1036
▁gente	-1037
▁17	-1038
cado	-1039
emás	-1040
▁además	-1041
▁estaba	-1042
▁buen	-1043
mb	-1044
▁traba	-1045
trar	-1046
des	-1047
dió	-1048
▁anim	-1049
▁nuestros	-1050
kunankupaq	-1051
▁diosman	-1052
▁palabras	-1053
▁ñawpaq	-1054
▁jos	-1055
▁isa	-1056
▁dos	-1057
ninta	-1058
▁esa	-1059
▁hinaspam	-1060
▁pare	-1061
▁cuenta	-1062
▁kaynata	-1063
gel	-1064
las	-1065
▁jus	-1066
kurqaku	-1067
gon	-1068
▁16	-1069
▁apos	-1070
▁bauti	-1071
▁ama	-1072
teo	-1073
▁agu	-1074
inci	-1075
imiento	-1076
▁anciano	-1077
gr	-1078
▁dar	-1079
▁famili	-1080
▁tanto	-1081
▁testigos	-1082
▁llev	-1083
▁ella	-1084
vir	-1085
▁servichi	-1086
▁pueden	-1087
▁haw	-1088
▁ú	-1089
▁sol	-1090
▁vol	-1091
▁mois	-1092
▁estar	-1093
▁uno	-1094
▁sigu	-1095
▁runakunapa	-1096
cación	-1097
▁contra	-1098
▁fiel	-1099
▁lugar	-1100
▁sun	-1101
▁princi	-1102
bu	-1103
nar	-1104
▁yo	-1105
▁algo	-1106
▁congregacion	-1107
con	-1108
▁sí	-1109
▁mos	-1110
▁apostol	-1111
ali	-1112
▁hizo	-1113
▁of	-1114
▁serv	-1115
▁dur	-1116
▁están	-1117
▁sunqu	-1118
▁tenemos	-1119
▁pedro	-1120
kusun	-1121
uel	-1122
▁sir	-1123
ptinku	-1124
▁ins	-1125
▁runakunaqa	-1126
▁expli	-1127
▁estas	-1128
▁todas	-1129
▁au	-1130
▁rev	-1131
▁artí	-1132
▁ami	-1133
▁feli	-1134
aris	-1135
▁padres	-1136
▁hukman	-1137
▁chin	-1138
llaña	-1139
▁op	-1140
▁muchas	-1141
▁parte	-1142
dar	-1143
elo	-1144
▁willakuy	-1145
▁wasi	-1146
tis	-1147
mpa	-1148
▁uni	-1149
▁pipas	-1150
▁yanapas	-1151
▁ne	-1152
chiy	-1153
▁cada	-1154
▁imanasqam	-1155
▁salmo	-1156
ove	-1157
▁ley	-1158
▁ter	-1159
▁siervos	-1160
▁abra	-1161
kunanpaq	-1162
▁diosmi	-1163
▁hace	-1164
▁nisqanman	-1165
emi	-1166
tido	-1167
▁kananpaq	-1168
qaku	-1169
▁mus	-1170
▁segur	-1171
▁paykunaqa	-1172
llata	-1173
▁llapallan	-1174
du	-1175
wasun	-1176
iendo	-1177
asqanta	-1178
▁hapi	-1179
▁tienen	-1180
asqayki	-1181
▁seguir	-1182
vor	-1183
▁ruway	-1184
almente	-1185
▁ak	-1186
aban	-1187
▁fin	-1188
▁problem	-1189
▁kanman	-1190
▁qon	-1191
ninku	-1192
▁agrade	-1193
▁manera	-1194
▁respon	-1195
▁estos	-1196
▁qillqa	-1197
▁importante	-1198
▁llamk	-1199
▁aswanqa	-1200
▁will	-1201
▁hoy	-1202
▁qos	-1203
▁hukmany	-1204
asqay	-1205
▁tenía	-1206
▁pon	-1207
▁alguna	-1208
llo	-1209
kunatapas	-1210
ele	-1211
ido	-1212
▁nombre	-1213
▁israeli	-1214
cípu	-1215
▁ñoqa	-1216
ere	-1217
▁discípu	-1218
ible	-1219
▁forma	-1220
▁quier	-1221
▁página	-1222
pio	-1223
▁buenas	-1224
▁har	-1225
▁munaycha	-1226
▁otras	-1227
vas	-1228
aspanku	-1229
argo	-1230
▁sea	-1231
▁chi	-1232
▁cual	-1233
kunchik	-1234
▁ñoqanchik	-1235
ticia	-1236
lan	-1237
cep	-1238
▁pueblo	-1239
▁ñu	-1240
▁nun	-1241
▁obe	-1242
panmi	-1243
▁recibi	-1244
▁manaraq	-1245
▁nunca	-1246
▁kaptinpas	-1247
paqmi	-1248
titu	-1249
kam	-1250
▁paymi	-1251
▁otro	-1252
cuer	-1253
kunataqa	-1254
ono	-1255
▁yuyayman	-1256
▁bendi	-1257
▁min	-1258
remos	-1259
▁reqs	-1260
anza	-1261
▁satanás	-1262
▁vid	-1263
rec	-1264
fici	-1265
▁enton	-1266
▁clar	-1267
▁juan	-1268
▁demás	-1269
▁entonces	-1270
▁abrah	-1271
▁hablar	-1272
rqani	-1273
▁fal	-1274
ani	-1275
llas	-1276
▁chayta	-1277
▁discípulos	-1278
▁ora	-1279
▁sutiyoq	-1280
▁huñunakuy	-1281
▁sino	-1282
▁sonqon	-1283
▁días	-1284
▁manaña	-1285
▁yanqa	-1286
▁tay	-1287
ario	-1288
▁manamá	-1289
▁precurs	-1290
fica	-1291
manmi	-1292
▁pagina	-1293
cri	-1294
arin	-1295
íamos	-1296
▁durante	-1297
▁suf	-1298
▁humi	-1299
▁qatipa	-1300
anpi	-1301
onio	-1302
▁arí	-1303
▁unan	-1304
▁bibli	-1305
ne	-1306
▁mes	-1307
▁chaynata	-1308
lon	-1309
zas	-1310
▁emb	-1311
▁pus	-1312
▁ayll	-1313
▁warma	-1314
▁kanankupaq	-1315
▁suy	-1316
niyuq	-1317
▁mozo	-1318
dores	-1319
▁mancha	-1320
tal	-1321
▁muerte	-1322
entos	-1323
▁apóstol	-1324
▁decisi	-1325
▁ale	-1326
ombres	-1327
▁manten	-1328
▁waw	-1329
lli	-1330
▁qaway	-1331
cil	-1332
kurqani	-1333
ge	-1334
asqanmanta	-1335
▁cab	-1336
▁chaynaqa	-1337
▁modo	-1338
▁runakunam	-1339
▁signi	-1340
▁hinaqa	-1341
▁don	-1342
zó	-1343
▁kachk	-1344
▁yachachisqan	-1345
ayá	-1346
paqqa	-1347
▁pampa	-1348
▁entiende	-1349
▁mayor	-1350
▁yanapawanchik	-1351
▁cha	-1352
urqaku	-1353
▁valor	-1354
▁dio	-1355
▁permi	-1356
▁desde	-1357
▁cuer	-1358
▁qollq	-1359
▁ustedes	-1360
qayki	-1361
dado	-1362
para	-1363
▁reg	-1364
cido	-1365
▁riku	-1366
▁watapi	-1367
▁karqaku	-1368
▁sam	-1369
kiqa	-1370
dido	-1371
▁poder	-1372
▁chaymanta	-1373
có	-1374
▁religion	-1375
▁vivir	-1376
▁bibliaqa	-1377
▁predicar	-1378
▁haykapipas	-1379
▁escu	-1380
▁espiritual	-1381
ase	-1382
tri	-1383
▁jud	-1384
▁ran	-1385
▁21	-1386
▁bus	-1387
▁kikin	-1388
oma	-1389
▁qawan	-1390
▁chaynapi	-1391
▁hon	-1392
▁chayqa	-1393
▁iskayray	-1394
▁ungi	-1395
▁incl	-1396
▁artículo	-1397
arichi	-1398
▁servir	-1399
▁warm	-1400
dia	-1401
llapi	-1402
▁temp	-1403
eta	-1404
rar	-1405
guien	-1406
▁nisqanta	-1407
▁mama	-1408
▁enten	-1409
▁24	-1410
abi	-1411
▁alguien	-1412
▁testigon	-1413
tura	-1414
▁cielo	-1415
▁hermano	-1416
▁nuestras	-1417
usal	-1418
▁riq	-1419
raqmi	-1420
dir	-1421
▁otra	-1422
unchik	-1423
kunanku	-1424
ció	-1425
▁qawasun	-1426
▁utaq	-1427
▁estudio	-1428
▁palabran	-1429
▁imata	-1430
wanpas	-1431
▁minis	-1432
▁publi	-1433
▁riman	-1434
▁qallayku	-1435
▁reuni	-1436
▁acep	-1437
▁santo	-1438
kusqanta	-1439
▁jerusal	-1440
ín	-1441
dan	-1442
rir	-1443
▁il	-1444
kachi	-1445
▁rima	-1446
▁paginapi	-1447
▁ove	-1448
jer	-1449
▁poco	-1450
▁sipas	-1451
▁wiñaypaq	-1452
▁sutin	-1453
▁chaski	-1454
▁embargo	-1455
▁bibliamanta	-1456
▁job	-1457
▁bibliam	-1458
▁22	-1459
▁kanku	-1460
puni	-1461
teri	-1462
▁tiempon	-1463
dio	-1464
▁rura	-1465
▁chu	-1466
▁anchata	-1467
ciencia	-1468
▁escribi	-1469
tió	-1470
▁ichapas	-1471
kuyqa	-1472
turas	-1473
▁atin	-1474
kuspanku	-1475
uela	-1476
▁debe	-1477
▁cuán	-1478
▁prome	-1479
▁hombres	-1480
▁favor	-1481
▁quién	-1482
▁yanapay	-1483
▁unos	-1484
▁enter	-1485
pen	-1486
▁can	-1487
▁sim	-1488
▁indi	-1489
▁prue	-1490
▁wasin	-1491
van	-1492
warqa	-1493
▁pisi	-1494
▁llegar	-1495
▁veces	-1496
pun	-1497
▁kani	-1498
▁do	-1499
▁ir	-1500
▁on	-1501
▁actu	-1502
▁encon	-1503
▁acer	-1504
▁caso	-1505
▁mill	-1506
▁llamkay	-1507
tamente	-1508
▁aque	-1509
ninpi	-1510
▁piña	-1511
▁nitaq	-1512
▁situ	-1513
pe	-1514
gen	-1515
▁jun	-1516
esa	-1517
▁diab	-1518
▁cul	-1519
▁hinaspapas	-1520
wanqa	-1521
▁imataq	-1522
aya	-1523
▁resul	-1524
ayqa	-1525
cemos	-1526
chana	-1527
ciendo	-1528
▁mujer	-1529
▁recor	-1530
▁pur	-1531
▁nuevo	-1532
▁bibliata	-1533
▁yachachin	-1534
▁lea	-1535
▁empe	-1536
▁chask	-1537
▁super	-1538
▁tri	-1539
▁nacionpi	-1540
▁lim	-1541
▁sirv	-1542
ustra	-1543
▁alli	-1544
▁munan	-1545
iste	-1546
▁mad	-1547
▁akll	-1548
▁hawka	-1549
paya	-1550
▁kim	-1551
bios	-1552
kuqa	-1553
▁kayta	-1554
▁prop	-1555
▁suya	-1556
▁obede	-1557
▁problemas	-1558
▁mom	-1559
▁diablo	-1560
kuptin	-1561
▁primero	-1562
▁serviqnin	-1563
aspay	-1564
▁ruwa	-1565
▁kamachiq	-1566
▁obs	-1567
▁qawachirqa	-1568
▁tak	-1569
▁esposa	-1570
▁yachar	-1571
niki	-1572
▁hemos	-1573
▁chaylla	-1574
▁gus	-1575
▁rurasqan	-1576
▁mor	-1577
▁onq	-1578
▁bautiza	-1579
lle	-1580
▁ana	-1581
▁div	-1582
▁humil	-1583
▁enseña	-1584
▁claro	-1585
▁tem	-1586
▁allpa	-1587
chaq	-1588
▁kaspan	-1589
▁hinaptinmi	-1590
terio	-1591
▁llama	-1592
▁pensar	-1593
▁prover	-1594
kuni	-1595
▁consi	-1596
duc	-1597
ios	-1598
jar	-1599
paschá	-1600
▁imam	-1601
ros	-1602
▁lé	-1603
▁23	-1604
▁hebre	-1605
▁llaqtapi	-1606
▁preguntas	-1607
fí	-1608
▁án	-1609
anankupaq	-1610
chikmi	-1611
▁aqu	-1612
▁yanapawasun	-1613
▁enemi	-1614
▁año	-1615
▁angel	-1616
▁willakuq	-1617
cial	-1618
cti	-1619
▁autor	-1620
▁tex	-1621
▁cuá	-1622
▁donde	-1623
▁testigo	-1624
▁qari	-1625
▁proverbios	-1626
▁hor	-1627
jas	-1628
▁som	-1629
▁espiri	-1630
▁kaqkunata	-1631
▁mayna	-1632
fecto	-1633
▁llumpayta	-1634
▁201	-1635
titud	-1636
▁quiz	-1637
fu	-1638
▁mateo	-1639
▁yanaparqa	-1640
▁kaptinqa	-1641
pañ	-1642
▁hamuq	-1643
▁uyari	-1644
▁atiy	-1645
▁nada	-1646
▁espe	-1647
charqa	-1648
▁será	-1649
▁mí	-1650
▁aten	-1651
emb	-1652
uso	-1653
▁posible	-1654
▁allinmi	-1655
▁chan	-1656
aykipaq	-1657
▁casara	-1658
▁huchalli	-1659
trim	-1660
kichu	-1661
gó	-1662
ñataq	-1663
▁matrim	-1664
▁rin	-1665
▁kimsa	-1666
ananchik	-1667
▁kiki	-1668
kuywan	-1669
▁propi	-1670
▁llu	-1671
▁comple	-1672
▁hinaptinqa	-1673
uego	-1674
▁raz	-1675
▁pasar	-1676
▁ning	-1677
▁ancianos	-1678
▁eran	-1679
▁sido	-1680
▁runaqa	-1681
▁esperan	-1682
▁visi	-1683
▁invi	-1684
▁obra	-1685
▁moises	-1686
don	-1687
▁25	-1688
▁admi	-1689
▁tomar	-1690
ctor	-1691
▁bon	-1692
ankuta	-1693
kuspay	-1694
▁guerra	-1695
▁niq	-1696
▁nor	-1697
▁bene	-1698
▁kayqa	-1699
▁cierto	-1700
▁espiritun	-1701
▁qay	-1702
kusqanku	-1703
ér	-1704
▁mensa	-1705
▁compren	-1706
▁habl	-1707
▁tend	-1708
▁significa	-1709
cul	-1710
▁estamos	-1711
▁gobierno	-1712
so	-1713
▁tres	-1714
▁escuela	-1715
▁imaynam	-1716
▁dibu	-1717
▁watu	-1718
▁kanapaq	-1719
▁paypa	-1720
aria	-1721
▁rep	-1722
cerdo	-1723
▁algunas	-1724
▁sacerdo	-1725
arnos	-1726
▁escrituras	-1727
▁paz	-1728
kusqanmanta	-1729
yku	-1730
▁churi	-1731
▁dedi	-1732
▁país	-1733
quier	-1734
kunapim	-1735
ankumanta	-1736
▁autoridad	-1737
▁chaypim	-1738
che	-1739
erta	-1740
ykipaq	-1741
kuychik	-1742
▁pachaman	-1743
▁léase	-1744
▁saber	-1745
pon	-1746
gamos	-1747
▁anchatam	-1748
iones	-1749
▁chanin	-1750
▁col	-1751
▁wawq	-1752
▁ungidos	-1753
▁israelitas	-1754
▁igu	-1755
▁bete	-1756
▁fuer	-1757
▁confianza	-1758
tación	-1759
▁cel	-1760
▁sien	-1761
llaraq	-1762
timos	-1763
▁ocas	-1764
▁nisqa	-1765
▁prote	-1766
▁chun	-1767
▁exper	-1768
▁deben	-1769
▁apoy	-1770
▁sacri	-1771
▁waqay	-1772
▁mantener	-1773
demos	-1774
▁amayá	-1775
▁cristiana	-1776
▁señal	-1777
uspan	-1778
▁conocer	-1779
able	-1780
▁debi	-1781
▁organ	-1782
▁ilustra	-1783
▁escribió	-1784
▁habían	-1785
▁contranpi	-1786
fes	-1787
iza	-1788
ñachu	-1789
▁nuevas	-1790
▁tapukuy	-1791
▁wawa	-1792
▁ruwasqan	-1793
tran	-1794
▁mam	-1795
pues	-1796
▁his	-1797
▁difí	-1798
▁importan	-1799
cimiento	-1800
▁munarqa	-1801
▁wakinpiqa	-1802
gro	-1803
ientos	-1804
▁roman	-1805
▁kamachisqan	-1806
ena	-1807
truc	-1808
▁taytan	-1809
▁consejo	-1810
udad	-1811
▁tes	-1812
▁escla	-1813
▁be	-1814
▁ministerio	-1815
mar	-1816
▁enfer	-1817
▁kasqankuta	-1818
chis	-1819
▁mien	-1820
▁ruraq	-1821
▁amigos	-1822
▁podría	-1823
▁kasqanku	-1824
ocu	-1825
unki	-1826
var	-1827
punim	-1828
▁pecado	-1829
aspaqa	-1830
encias	-1831
▁mientras	-1832
tró	-1833
taba	-1834
▁duda	-1835
▁ofre	-1836
chikpas	-1837
▁dibujo	-1838
mina	-1839
▁casado	-1840
▁diospi	-1841
▁gracias	-1842
▁aprender	-1843
wananchikpaq	-1844
▁jó	-1845
venes	-1846
▁envi	-1847
▁llapan	-1848
▁jóvenes	-1849
ypaq	-1850
▁diri	-1851
gip	-1852
▁egip	-1853
▁mask	-1854
ananpaq	-1855
aspanmi	-1856
▁ciudad	-1857
▁gobiernon	-1858
chos	-1859
▁disf	-1860
▁preocu	-1861
▁siente	-1862
▁dioswan	-1863
cua	-1864
▁inf	-1865
▁betel	-1866
▁trabajo	-1867
▁somos	-1868
▁jesusmi	-1869
▁bondad	-1870
▁chaypi	-1871
▁200	-1872
▁luego	-1873
▁humanos	-1874
▁cer	-1875
manchu	-1876
▁disfru	-1877
▁quiere	-1878
▁infor	-1879
war	-1880
▁podr	-1881
▁kaspa	-1882
▁bibliapi	-1883
▁quizás	-1884
▁moisés	-1885
▁runakunaman	-1886
▁gri	-1887
▁eter	-1888
▁kuska	-1889
▁veamos	-1890
▁revel	-1891
▁publica	-1892
▁inm	-1893
tados	-1894
▁sentido	-1895
▁úl	-1896
▁tran	-1897
kuchwan	-1898
▁apaq	-1899
▁recuer	-1900
▁deber	-1901
▁respues	-1902
isto	-1903
culos	-1904
▁salva	-1905
▁incluso	-1906
▁momento	-1907
▁igual	-1908
▁fieles	-1909
▁gob	-1910
▁asuy	-1911
kuyninta	-1912
▁reuniones	-1913
▁viv	-1914
mana	-1915
▁leer	-1916
▁expres	-1917
▁esperanza	-1918
▁siguiente	-1919
▁wañuy	-1920
xi	-1921
▁pes	-1922
▁tras	-1923
▁mensaje	-1924
tale	-1925
anchikmi	-1926
▁ante	-1927
▁chayraykum	-1928
llanpi	-1929
▁templo	-1930
bo	-1931
uptin	-1932
▁corin	-1933
▁matrimonio	-1934
dó	-1935
▁judio	-1936
▁agradece	-1937
▁fueron	-1938
▁entender	-1939
arim	-1940
▁histor	-1941
▁fortale	-1942
▁panta	-1943
▁según	-1944
anchikta	-1945
ramos	-1946
▁eva	-1947
▁texto	-1948
▁idi	-1949
a	-1950
▁	-1951
n	-1952
e	-1953
i	-1954
s	-1955
o	-1956
u	-1957
r	-1958
t	-1959
l	-1960
c	-1961
m	-1962
p	-1963
q	-1964
k	-1965
d	-1966
h	-1967
y	-1968
b	-1969
w	-1970
v	-1971
g	-1972
j	-1973
á	-1974
ñ	-1975
f	-1976
ó	-1977
í	-1978
é	-1979
1	-1980
z	-1981
2	-1982
ú	-1983
0	-1984
3	-1985
-	-1986
x	-1987
4	-1988
5	-1989
9	-1990
6	-1991
7	-1992
8	-1993
ü	-1994
'	-1995
