<pad>	0
<unk>	0
<s>	0
</s>	0
an	-0
ta	-1
ch	-2
pa	-3
ku	-4
os	-5
▁d	-6
na	-7
▁e	-8
▁a	-9
qa	-10
▁l	-11
▁s	-12
as	-13
▁c	-14
▁m	-15
er	-16
▁p	-17
▁de	-18
in	-19
▁h	-20
ay	-21
es	-22
en	-23
qu	-24
ar	-25
on	-26
▁r	-27
▁k	-28
▁qu	-29
▁y	-30
▁n	-31
ll	-32
man	-33
▁t	-34
chi	-35
kuna	-36
or	-37
is	-38
im	-39
un	-40
ci	-41
▁que	-42
▁pa	-43
▁es	-44
ra	-45
▁di	-46
▁j	-47
mi	-48
pi	-49
▁la	-50
qan	-51
▁en	-52
▁ch	-53
chik	-54
ana	-55
ti	-56
do	-57
cha	-58
▁dios	-59
wan	-60
te	-61
re	-62
li	-63
paq	-64
manta	-65
▁con	-66
pas	-67
am	-68
▁su	-69
una	-70
▁w	-71
▁el	-72
ina	-73
▁chay	-74
em	-75
da	-76
▁v	-77
kuy	-78
▁b	-79
▁im	-80
to	-81
ov	-82
om	-83
▁hina	-84
us	-85
▁los	-86
▁se	-87
aq	-88
ur	-89
▁je	-90
▁mana	-91
▁jeh	-92
▁jehov	-93
al	-94
▁re	-95
▁f	-96
▁ha	-97
di	-98
tam	-99
ri	-100
ón	-101
lla	-102
▁o	-103
▁i	-104
asqan	-105
ki	-106
ien	-107
▁ya	-108
▁1	-109
▁ll	-110
tr	-111
pan	-112
▁pr	-113
▁qa	-114
▁por	-115
chu	-116
lo	-117
ña	-118
taq	-119
nin	-120
▁un	-121
▁all	-122
▁jehová	-123
rqa	-124
▁ka	-125
ue	-126
spa	-127
▁al	-128
▁cu	-129
▁no	-130
ib	-131
▁wa	-132
▁si	-133
▁hu	-134
▁g	-135
▁ima	-136
kun	-137
tu	-138
ab	-139
▁allin	-140
emp	-141
ía	-142
▁jes	-143
kunata	-144
vi	-145
ción	-146
kus	-147
tin	-148
uy	-149
anku	-150
▁le	-151
▁ta	-152
▁las	-153
▁per	-154
arqa	-155
▁runa	-156
▁hinaspa	-157
▁para	-158
▁as	-159
▁com	-160
de	-161
▁ti	-162
dad	-163
▁lo	-164
ca	-165
▁ser	-166
▁kay	-167
▁nis	-168
▁in	-169
▁an	-170
bi	-171
▁ni	-172
▁qué	-173
lia	-174
chk	-175
emos	-176
se	-177
asqa	-178
tan	-179
▁bib	-180
▁tu	-181
ás	-182
ues	-183
anchik	-184
▁nos	-185
el	-186
od	-187
▁q	-188
▁chayna	-189
▁pay	-190
ris	-191
▁biblia	-192
ente	-193
▁del	-194
▁2	-195
ptin	-196
mo	-197
▁diospa	-198
iy	-199
ce	-200
▁vi	-201
▁wi	-202
cion	-203
▁una	-204
▁yana	-205
le	-206
▁kasqan	-207
▁mi	-208
▁ru	-209
▁kan	-210
ayna	-211
ando	-212
cer	-213
▁pre	-214
pay	-215
▁tiemp	-216
▁sa	-217
▁ma	-218
la	-219
▁qaw	-220
gu	-221
▁-	-222
cu	-223
tar	-224
▁am	-225
achi	-226
▁huk	-227
▁imayna	-228
án	-229
ob	-230
▁yach	-231
tra	-232
▁runakuna	-233
▁cris	-234
▁yacha	-235
▁me	-236
▁mu	-237
ona	-238
▁sus	-239
fi	-240
▁tiempo	-241
cia	-242
▁kaq	-243
sa	-244
ga	-245
▁muna	-246
tos	-247
▁ap	-248
ec	-249
▁rur	-250
▁manam	-251
oq	-252
tas	-253
ayku	-254
dos	-255
▁jesus	-256
▁como	-257
go	-258
jo	-259
▁res	-260
▁ten	-261
▁man	-262
▁nispa	-263
▁jehova	-264
ter	-265
▁is	-266
▁des	-267
▁hi	-268
kunaqa	-269
kuq	-270
tes	-271
pim	-272
anpaq	-273
▁ri	-274
▁hab	-275
▁na	-276
ba	-277
▁ay	-278
ora	-279
▁iñ	-280
▁más	-281
▁icha	-282
pu	-283
▁nues	-284
▁ex	-285
▁karqa	-286
amos	-287
ús	-288
ro	-289
ol	-290
▁yachachi	-291
▁pro	-292
ankupaq	-293
era	-294
▁pi	-295
ari	-296
▁jesús	-297
ten	-298
▁kaw	-299
▁cristi	-300
que	-301
én	-302
ran	-303
gi	-304
kusqan	-305
▁willa	-306
▁cas	-307
mas	-308
▁to	-309
kin	-310
▁yanapa	-311
▁có	-312
▁kas	-313
taqmi	-314
▁rim	-315
ka	-316
▁esp	-317
res	-318
tros	-319
▁pue	-320
▁pacha	-321
ante	-322
▁nin	-323
▁cómo	-324
▁é	-325
za	-326
taqa	-327
▁ichaqa	-328
▁ruw	-329
▁pun	-330
▁pod	-331
▁cuando	-332
ma	-333
yki	-334
mos	-335
▁son	-336
▁esta	-337
▁sal	-338
▁cristian	-339
co	-340
▁ver	-341
▁kall	-342
▁kuy	-343
▁servi	-344
kurqa	-345
uq	-346
les	-347
▁pers	-348
iq	-349
chin	-350
blo	-351
▁tukuy	-352
niy	-353
▁él	-354
yta	-355
▁hay	-356
rayku	-357
▁3	-358
bre	-359
▁ar	-360
▁her	-361
▁tra	-362
▁sin	-363
▁ad	-364
ño	-365
esti	-366
▁ve	-367
▁nirqa	-368
ud	-369
▁pero	-370
tro	-371
▁persona	-372
wanchik	-373
▁deb	-374
▁ca	-375
▁kus	-376
▁pe	-377
▁est	-378
▁estu	-379
kay	-380
▁kallpan	-381
▁much	-382
▁diosta	-383
▁chaymi	-384
tapas	-385
▁war	-386
▁mis	-387
masin	-388
▁iñiq	-389
car	-390
▁dis	-391
▁lla	-392
▁wañ	-393
sqan	-394
▁tod	-395
▁ej	-396
chka	-397
si	-398
▁esc	-399
▁wata	-400
▁llaq	-401
▁kam	-402
▁nisqan	-403
▁cos	-404
▁iman	-405
ciones	-406
▁lle	-407
ritu	-408
▁ña	-409
▁diosqa	-410
ir	-411
▁mun	-412
gun	-413
▁resp	-414
ían	-415
▁ac	-416
▁fa	-417
▁ob	-418
▁estudi	-419
▁lib	-420
der	-421
tawan	-422
▁kaws	-423
kunapa	-424
▁imanasqa	-425
asqanchik	-426
▁kamachi	-427
kunamanta	-428
kuynin	-429
lab	-430
tad	-431
▁wakin	-432
qanchik	-433
emplo	-434
▁pien	-435
den	-436
ren	-437
mp	-438
ier	-439
▁tam	-440
▁imp	-441
▁pablo	-442
panku	-443
oy	-444
▁vida	-445
uc	-446
ara	-447
▁mo	-448
chkan	-449
asa	-450
▁sob	-451
qani	-452
▁llam	-453
▁ancha	-454
vo	-455
asun	-456
um	-457
chwan	-458
anapaq	-459
▁palab	-460
▁herman	-461
▁par	-462
▁yuy	-463
ones	-464
▁todo	-465
▁ab	-466
▁predi	-467
kur	-468
▁tari	-469
va	-470
▁hacer	-471
tor	-472
▁pu	-473
isi	-474
llan	-475
bién	-476
kunapi	-477
▁piens	-478
▁también	-479
mantapas	-480
gre	-481
enta	-482
kuta	-483
▁pas	-484
chaw	-485
▁este	-486
▁testi	-487
▁iñiqmasin	-488
eces	-489
▁sasa	-490
ero	-491
▁fu	-492
▁allinta	-493
▁imaynatam	-494
lar	-495
aspa	-496
tiy	-497
▁ju	-498
ni	-499
raq	-500
kunawan	-501
▁chur	-502
és	-503
anqa	-504
ayta	-505
▁les	-506
▁he	-507
isqa	-508
▁sobre	-509
eron	-510
jos	-511
tun	-512
▁da	-513
urqa	-514
▁espi	-515
▁achka	-516
▁4	-517
anta	-518
▁us	-519
▁cam	-520
▁todos	-521
grega	-522
▁congrega	-523
los	-524
▁ku	-525
▁qe	-526
ías	-527
qnin	-528
▁imatam	-529
ino	-530
nos	-531
▁personas	-532
▁ejemplo	-533
io	-534
kunapaq	-535
▁sonq	-536
▁aswan	-537
ayki	-538
▁otaq	-539
▁así	-540
gos	-541
▁qati	-542
idad	-543
▁kasu	-544
gar	-545
▁cre	-546
kunam	-547
ños	-548
erra	-549
llos	-550
wa	-551
ras	-552
ia	-553
▁sab	-554
▁muy	-555
▁tien	-556
gina	-557
▁kasqanta	-558
ali	-559
▁tan	-560
kuspa	-561
▁so	-562
▁iñiqmasinchik	-563
▁ent	-564
▁ayud	-565
mantam	-566
zo	-567
tol	-568
ver	-569
zar	-570
▁fe	-571
▁pachapi	-572
▁6	-573
▁cristiano	-574
encia	-575
▁u	-576
bli	-577
ombre	-578
▁nacion	-579
▁or	-580
▁uy	-581
▁señ	-582
▁kallpancha	-583
▁19	-584
▁bien	-585
llqa	-586
▁pad	-587
ninchik	-588
▁ki	-589
▁cosas	-590
▁punchaw	-591
niyoq	-592
gra	-593
tim	-594
▁qo	-595
▁exp	-596
▁astawan	-597
mente	-598
par	-599
▁diosmanta	-600
▁cor	-601
▁quien	-602
▁5	-603
piqa	-604
tras	-605
▁sen	-606
pipas	-607
▁sasacha	-608
uda	-609
ores	-610
ado	-611
waq	-612
tien	-613
ales	-614
▁eso	-615
ama	-616
▁sapa	-617
chan	-618
kunan	-619
▁ben	-620
▁comp	-621
▁fami	-622
▁espiritu	-623
▁puede	-624
ará	-625
▁ense	-626
▁neces	-627
▁ño	-628
▁iskay	-629
fec	-630
qay	-631
▁ba	-632
kuyta	-633
▁tayta	-634
00	-635
▁isra	-636
▁kusi	-637
▁maña	-638
ey	-639
ru	-640
▁san	-641
▁qall	-642
cen	-643
▁ra	-644
▁han	-645
▁car	-646
▁era	-647
raykum	-648
ún	-649
vos	-650
▁ci	-651
▁sum	-652
aspan	-653
▁kaptin	-654
▁llaqta	-655
▁jesuspa	-656
▁podemos	-657
▁está	-658
▁chaynataq	-659
▁noso	-660
po	-661
▁for	-662
▁hinam	-663
▁verdad	-664
▁kuti	-665
▁nosotros	-666
uni	-667
▁rec	-668
▁amis	-669
▁dijo	-670
▁llum	-671
ces	-672
▁qawa	-673
▁fi	-674
▁fue	-675
▁vez	-676
▁yaqa	-677
▁may	-678
▁ñaw	-679
▁escri	-680
▁kayna	-681
▁porque	-682
▁amistad	-683
anchikpaq	-684
ja	-685
cos	-686
▁tante	-687
cho	-688
▁rey	-689
▁satan	-690
▁tierra	-691
kum	-692
▁hermanos	-693
cian	-694
▁ham	-695
▁was	-696
▁había	-697
▁sumaq	-698
▁años	-699
▁mundo	-700
▁punta	-701
yá	-702
chá	-703
▁cump	-704
ern	-705
kunapas	-706
ted	-707
▁huñ	-708
▁sig	-709
▁ellos	-710
▁impor	-711
▁respe	-712
▁usted	-713
enci	-714
eros	-715
ens	-716
▁wañu	-717
▁gran	-718
▁pues	-719
▁kawsa	-720
▁payqa	-721
kunaman	-722
▁mal	-723
▁prim	-724
▁chas	-725
aba	-726
das	-727
iente	-728
▁munay	-729
▁nuestra	-730
▁qawachi	-731
▁cristianos	-732
cas	-733
tir	-734
ento	-735
▁conse	-736
zón	-737
▁kuya	-738
me	-739
▁lu	-740
▁día	-741
▁hatun	-742
tó	-743
ariy	-744
▁prom	-745
▁ancian	-746
▁llumpay	-747
▁nuestro	-748
▁15	-749
▁nue	-750
isqan	-751
▁dice	-752
kichik	-753
can	-754
▁go	-755
▁debemos	-756
ñam	-757
▁ati	-758
▁medi	-759
anmanta	-760
▁cristo	-761
▁pregun	-762
cur	-763
cio	-764
▁pres	-765
▁cambi	-766
ani	-767
aron	-768
▁reino	-769
vid	-770
▁te	-771
tante	-772
arqaku	-773
eran	-774
▁cono	-775
▁7	-776
ligi	-777
kumanta	-778
ós	-779
▁8	-780
asta	-781
wanmi	-782
▁deci	-783
▁jer	-784
▁confi	-785
ul	-786
▁tom	-787
▁religi	-788
▁cons	-789
▁qui	-790
▁suy	-791
rqaku	-792
tamos	-793
▁jesusqa	-794
osa	-795
qui	-796
▁gu	-797
▁amor	-798
▁hijos	-799
▁11	-800
uena	-801
▁buena	-802
fer	-803
sqa	-804
anaq	-805
▁segu	-806
▁inter	-807
▁huñuna	-808
▁sasachakuy	-809
▁mismo	-810
▁entien	-811
▁dec	-812
▁libro	-813
kunatam	-814
ble	-815
ray	-816
▁12	-817
kunku	-818
▁hanaq	-819
▁lli	-820
▁dem	-821
▁yachachikuy	-822
tí	-823
▁yu	-824
iento	-825
▁pasa	-826
▁sutiy	-827
▁14	-828
▁após	-829
▁qellqa	-830
▁9	-831
ión	-832
amente	-833
▁yuyay	-834
ñataqmi	-835
▁20	-836
▁dej	-837
ptinmi	-838
▁contr	-839
▁llaqtan	-840
▁co	-841
▁solo	-842
▁entre	-843
▁munasqan	-844
▁qawachin	-845
gún	-846
▁che	-847
▁lliw	-848
▁tapu	-849
je	-850
empre	-851
▁espí	-852
▁kunan	-853
▁warmi	-854
▁siempre	-855
gr	-856
eli	-857
imo	-858
▁po	-859
▁pá	-860
▁ese	-861
▁runakunata	-862
ptinqa	-863
▁hayka	-864
▁llapa	-865
▁bí	-866
▁saq	-867
risto	-868
kuqa	-869
llam	-870
▁mej	-871
▁cora	-872
▁hucha	-873
▁señor	-874
ís	-875
araq	-876
▁men	-877
▁ven	-878
▁apos	-879
▁bíbli	-880
▁sonqo	-881
▁tiempopi	-882
▁kasqanmanta	-883
▁pan	-884
chikqa	-885
▁mucho	-886
▁algun	-887
▁hombre	-888
▁qi	-889
▁ñak	-890
▁hijo	-891
▁yachay	-892
▁apostol	-893
▁val	-894
▁gobi	-895
▁rimay	-896
▁espíritu	-897
qaku	-898
▁cui	-899
▁req	-900
▁chuy	-901
▁leey	-902
▁human	-903
▁jesuc	-904
▁churin	-905
▁imapas	-906
▁corazón	-907
▁congregación	-908
rá	-909
▁10	-910
culo	-911
▁agra	-912
▁jesucristo	-913
lem	-914
▁prof	-915
▁sier	-916
chikta	-917
▁parte	-918
▁qatiqnin	-919
ban	-920
gon	-921
char	-922
▁pos	-923
omb	-924
tado	-925
▁gen	-926
aypaq	-927
▁prob	-928
▁reci	-929
▁cumpli	-930
llq	-931
▁mas	-932
▁padre	-933
▁quienes	-934
kunanchik	-935
for	-936
▁13	-937
▁llev	-938
▁apren	-939
▁otros	-940
▁bibliapa	-941
▁hinaspam	-942
▁chaymantapas	-943
oso	-944
teo	-945
kama	-946
▁dar	-947
▁kar	-948
▁wiñ	-949
panmi	-950
▁yachan	-951
dro	-952
▁aun	-953
▁ayuda	-954
▁david	-955
▁enseñ	-956
▁algunos	-957
▁familia	-958
lus	-959
endo	-960
ista	-961
pués	-962
▁rela	-963
▁ruwan	-964
▁después	-965
▁hinalla	-966
wasqanchik	-967
tur	-968
▁bu	-969
imos	-970
▁bau	-971
▁jus	-972
▁yupay	-973
ac	-974
mb	-975
chay	-976
▁isa	-977
▁iñiy	-978
▁ruran	-979
▁traba	-980
▁necesi	-981
qap	-982
▁dese	-983
▁esto	-984
▁toda	-985
▁mejor	-986
▁tener	-987
▁muchos	-988
▁palabra	-989
▁nuestros	-990
▁ñ	-991
▁law	-992
▁tal	-993
alidad	-994
▁willakuy	-995
▁apa	-996
▁rik	-997
curs	-998
▁qam	-999
usqan	-1000
▁muer	-1001
▁kachkan	-1002
▁testigos	-1003
inci	-1004
▁ama	-1005
▁tiene	-1006
▁kusisqa	-1007
nar	-1008
▁ah	-1009
guna	-1010
▁emp	-1011
▁mar	-1012
entes	-1013
▁ayudar	-1014
▁sí	-1015
cado	-1016
▁dos	-1017
▁dur	-1018
▁gra	-1019
▁pens	-1020
▁demos	-1021
▁israel	-1022
aris	-1023
▁rev	-1024
▁uno	-1025
▁prov	-1026
▁hasta	-1027
kurqaku	-1028
mantaqa	-1029
▁rurasqan	-1030
▁runakunapa	-1031
▁casa	-1032
▁princi	-1033
▁gobiern	-1034
▁imanasqataq	-1035
dor	-1036
▁ro	-1037
arse	-1038
cias	-1039
▁esa	-1040
▁abra	-1041
▁anim	-1042
▁gente	-1043
▁yanapan	-1044
bu	-1045
uel	-1046
▁mos	-1047
▁ñawpaq	-1048
du	-1049
ve	-1050
▁ami	-1051
▁sigu	-1052
▁suti	-1053
▁imatapas	-1054
▁ú	-1055
ete	-1056
▁17	-1057
▁buen	-1058
cación	-1059
▁hukman	-1060
▁congregacion	-1061
cí	-1062
con	-1063
ias	-1064
per	-1065
ciona	-1066
▁cuenta	-1067
▁kaynata	-1068
gel	-1069
▁jos	-1070
ación	-1071
▁pare	-1072
▁anciano	-1073
▁tenemos	-1074
elo	-1075
tud	-1076
▁ter	-1077
▁uni	-1078
▁artí	-1079
▁llaki	-1080
▁ruray	-1081
dió	-1082
unqu	-1083
lidad	-1084
manku	-1085
▁chin	-1086
▁cier	-1087
▁quer	-1088
▁chuya	-1089
▁sunqu	-1090
▁estaba	-1091
▁hukmany	-1092
▁siervos	-1093
▁haw	-1094
llata	-1095
▁tanto	-1096
kunankupaq	-1097
gan	-1098
▁contra	-1099
emi	-1100
las	-1101
pio	-1102
▁estar	-1103
▁están	-1104
▁hecho	-1105
▁lugar	-1106
asqayki	-1107
imiento	-1108
▁cheqap	-1109
gur	-1110
ría	-1111
llaña	-1112
▁mois	-1113
▁munaycha	-1114
▁hoy	-1115
▁ñoqa	-1116
▁bauti	-1117
▁pipas	-1118
▁predic	-1119
▁servichi	-1120
mpa	-1121
tal	-1122
vir	-1123
emás	-1124
ninta	-1125
▁hapi	-1126
▁decir	-1127
▁expli	-1128
▁además	-1129
▁pueblo	-1130
▁página	-1131
ven	-1132
▁agu	-1133
▁tar	-1134
dar	-1135
tis	-1136
▁of	-1137
aban	-1138
▁sol	-1139
▁antes	-1140
almente	-1141
▁paykunaqa	-1142
ticia	-1143
▁ahora	-1144
▁estas	-1145
▁pedro	-1146
kunanpaq	-1147
▁sutiyoq	-1148
▁palabras	-1149
vor	-1150
kupi	-1151
▁ins	-1152
niyuq	-1153
chasqa	-1154
▁manera	-1155
▁recibi	-1156
▁importante	-1157
▁ak	-1158
tido	-1159
iendo	-1160
▁ella	-1161
▁abrah	-1162
▁diosmi	-1163
▁apóstol	-1164
▁au	-1165
arin	-1166
▁cha	-1167
paqqa	-1168
▁kanqa	-1169
▁tenía	-1170
▁pueden	-1171
▁seguir	-1172
▁diosman	-1173
anpi	-1174
▁algo	-1175
▁pagina	-1176
▁ne	-1177
chiy	-1178
▁arí	-1179
qayki	-1180
▁todas	-1181
▁agrade	-1182
▁aunque	-1183
▁nombre	-1184
▁op	-1185
▁cab	-1186
dores	-1187
▁otro	-1188
có	-1189
ele	-1190
llo	-1191
▁chi	-1192
▁hizo	-1193
kunchik	-1194
▁testigon	-1195
cep	-1196
▁16	-1197
▁fal	-1198
manmi	-1199
▁hace	-1200
▁padres	-1201
▁durante	-1202
kunatapas	-1203
▁ñoqanchik	-1204
ido	-1205
▁18	-1206
▁mus	-1207
▁qon	-1208
kusun	-1209
▁fiel	-1210
aspanku	-1211
▁alguna	-1212
▁respon	-1213
▁kananpaq	-1214
trar	-1215
▁ora	-1216
▁vol	-1217
▁will	-1218
▁buenas	-1219
▁precurs	-1220
▁yanapas	-1221
▁runakunaqa	-1222
▁bus	-1223
▁sir	-1224
▁días	-1225
▁quier	-1226
▁tienen	-1227
lan	-1228
ove	-1229
▁ñu	-1230
▁cada	-1231
▁serv	-1232
▁kachk	-1233
▁sonqon	-1234
▁min	-1235
▁demás	-1236
▁qaway	-1237
▁yanqa	-1238
▁ruwasqan	-1239
des	-1240
ible	-1241
▁inc	-1242
▁tay	-1243
entos	-1244
isión	-1245
kachi	-1246
▁acti	-1247
▁llamk	-1248
▁nitaq	-1249
▁paymi	-1250
▁aswanqa	-1251
lon	-1252
ario	-1253
fici	-1254
▁sam	-1255
▁sea	-1256
▁fuer	-1257
▁ungi	-1258
kuptin	-1259
▁ruway	-1260
▁salmo	-1261
▁mancha	-1262
▁muchas	-1263
zas	-1264
▁feli	-1265
▁wasi	-1266
▁israeli	-1267
▁satanás	-1268
ede	-1269
vas	-1270
▁sino	-1271
▁bendi	-1272
▁qollq	-1273
▁chayqa	-1274
▁huñunakuy	-1275
▁llapallan	-1276
▁yanapawanchik	-1277
▁yo	-1278
▁qos	-1279
▁juan	-1280
▁qatipa	-1281
▁problem	-1282
▁artículo	-1283
▁qallayku	-1284
dan	-1285
eci	-1286
cípu	-1287
▁dio	-1288
▁pon	-1289
▁ran	-1290
▁waw	-1291
cción	-1292
kuspan	-1293
▁estos	-1294
▁permi	-1295
▁discípu	-1296
▁kaptinpas	-1297
zó	-1298
dio	-1299
ono	-1300
▁emb	-1301
wasun	-1302
▁cual	-1303
▁recu	-1304
▁unan	-1305
▁chayta	-1306
▁famili	-1307
▁paginapi	-1308
▁nisqanman	-1309
llas	-1310
unca	-1311
usal	-1312
▁don	-1313
asqay	-1314
urqaku	-1315
▁bibli	-1316
▁cuida	-1317
▁favor	-1318
▁nunca	-1319
▁warma	-1320
▁hinaqa	-1321
▁entiende	-1322
▁runakunam	-1323
ne	-1324
argo	-1325
onio	-1326
▁ale	-1327
▁chu	-1328
▁pur	-1329
▁alli	-1330
▁suya	-1331
▁unos	-1332
kunataqa	-1333
▁jerusal	-1334
▁haykapipas	-1335
ge	-1336
tri	-1337
uela	-1338
▁fin	-1339
▁har	-1340
▁suf	-1341
remos	-1342
▁prome	-1343
▁qillqa	-1344
▁imanasqam	-1345
▁vid	-1346
paqmi	-1347
▁ayll	-1348
▁otra	-1349
▁minis	-1350
▁pampa	-1351
▁chaski	-1352
▁kanman	-1353
▁manaña	-1354
▁chaynaqa	-1355
▁palabran	-1356
▁espiritual	-1357
cri	-1358
kam	-1359
pti	-1360
van	-1361
▁22	-1362
mana	-1363
▁ley	-1364
▁riku	-1365
▁warm	-1366
▁hablar	-1367
▁manaraq	-1368
▁chaynata	-1369
ayá	-1370
▁riq	-1371
▁escu	-1372
ombres	-1373
▁otras	-1374
▁estudio	-1375
▁bibliaqa	-1376
▁discípulos	-1377
eta	-1378
lli	-1379
▁do	-1380
ctor	-1381
▁jud	-1382
▁mad	-1383
cerdo	-1384
raqmi	-1385
▁atiy	-1386
▁forma	-1387
▁publi	-1388
kunapim	-1389
▁sacerdo	-1390
▁chaynapi	-1391
▁yuyayman	-1392
ín	-1393
para	-1394
▁sim	-1395
llapi	-1396
rqani	-1397
▁humi	-1398
▁invi	-1399
▁prue	-1400
▁reqs	-1401
▁reuni	-1402
▁wasin	-1403
▁nisqanta	-1404
rar	-1405
▁reg	-1406
onces	-1407
▁cielo	-1408
▁qawasun	-1409
▁entonces	-1410
ase	-1411
aya	-1412
bió	-1413
pun	-1414
nifi	-1415
▁can	-1416
▁mor	-1417
turas	-1418
▁caso	-1419
▁rura	-1420
▁mayna	-1421
▁manamá	-1422
▁watapi	-1423
▁iskayray	-1424
▁religion	-1425
▁yachachisqan	-1426
dia	-1427
dido	-1428
▁utaq	-1429
▁kikin	-1430
▁manten	-1431
▁predicar	-1432
ció	-1433
▁24	-1434
▁on	-1435
cido	-1436
kuyqa	-1437
▁cuer	-1438
▁mill	-1439
▁prop	-1440
▁resul	-1441
▁segur	-1442
ciencia	-1443
▁muerte	-1444
cil	-1445
▁pus	-1446
guien	-1447
▁acep	-1448
▁clar	-1449
▁cuán	-1450
▁qawan	-1451
▁valor	-1452
▁vivir	-1453
▁servir	-1454
▁chaylla	-1455
ankumanta	-1456
oma	-1457
ninpi	-1458
▁alguien	-1459
▁karqaku	-1460
▁signifi	-1461
▁preguntas	-1462
▁yachachin	-1463
▁hinaptinmi	-1464
tió	-1465
ablo	-1466
▁aqu	-1467
▁qay	-1468
cemos	-1469
▁akll	-1470
▁modo	-1471
▁mayor	-1472
▁santo	-1473
▁sutin	-1474
anankupaq	-1475
▁ove	-1476
▁pes	-1477
timos	-1478
íamos	-1479
▁indi	-1480
arichi	-1481
▁señal	-1482
▁comple	-1483
▁kaspan	-1484
▁bibliam	-1485
▁embargo	-1486
▁primero	-1487
▁yanapay	-1488
▁nuestras	-1489
▁chaymanta	-1490
▁contranpi	-1491
▁kanankupaq	-1492
abi	-1493
arun	-1494
tura	-1495
▁mes	-1496
arnos	-1497
wanqa	-1498
▁imata	-1499
▁mateo	-1500
▁nuevo	-1501
tamente	-1502
▁diablo	-1503
▁llamkay	-1504
▁testigo	-1505
▁ungidos	-1506
don	-1507
gen	-1508
teri	-1509
▁onq	-1510
▁empe	-1511
▁pisi	-1512
▁piña	-1513
▁rima	-1514
▁desde	-1515
▁rikuri	-1516
▁escuela	-1517
lu	-1518
▁hon	-1519
▁lea	-1520
▁tri	-1521
▁admi	-1522
▁bene	-1523
▁debe	-1524
▁mama	-1525
▁situ	-1526
paschá	-1527
wanpas	-1528
▁donde	-1529
▁taytan	-1530
▁hermano	-1531
▁kamachiq	-1532
emb	-1533
jer	-1534
▁cuá	-1535
▁rep	-1536
▁tem	-1537
▁poco	-1538
▁enemi	-1539
▁hawka	-1540
▁hebre	-1541
▁kayta	-1542
▁quién	-1543
chasqan	-1544
▁enseña	-1545
▁estamos	-1546
▁hombres	-1547
▁llumpayta	-1548
fu	-1549
▁21	-1550
▁ana	-1551
▁jun	-1552
chana	-1553
kichu	-1554
▁allpa	-1555
▁churi	-1556
▁enter	-1557
▁obede	-1558
kurqani	-1559
kuychik	-1560
▁pensar	-1561
kusqanta	-1562
▁anchata	-1563
▁willakuq	-1564
ros	-1565
uego	-1566
éase	-1567
▁mom	-1568
ñataq	-1569
▁aque	-1570
▁chan	-1571
▁mozo	-1572
▁obra	-1573
▁consi	-1574
▁uyari	-1575
▁escrituras	-1576
▁hinaspapas	-1577
duc	-1578
chaq	-1579
iste	-1580
kiqa	-1581
trim	-1582
kupas	-1583
▁dibu	-1584
▁efec	-1585
▁matrim	-1586
▁ichapas	-1587
▁tiempon	-1588
▁huchalli	-1589
dir	-1590
able	-1591
anza	-1592
▁obs	-1593
aspay	-1594
▁acer	-1595
▁atin	-1596
▁ilus	-1597
▁mien	-1598
▁será	-1599
tación	-1600
▁enten	-1601
▁propi	-1602
ananpaq	-1603
▁esposa	-1604
▁templo	-1605
▁mientras	-1606
▁nacionpi	-1607
▁pachaman	-1608
puni	-1609
▁col	-1610
▁job	-1611
▁comi	-1612
▁dedi	-1613
▁qari	-1614
▁quiz	-1615
▁sirv	-1616
ankuta	-1617
arqani	-1618
▁angel	-1619
▁encon	-1620
▁recor	-1621
▁conocer	-1622
▁serviqnin	-1623
ere	-1624
▁lim	-1625
▁rin	-1626
ramos	-1627
terio	-1628
▁chun	-1629
chikmi	-1630
ciendo	-1631
▁escla	-1632
▁munan	-1633
▁consejo	-1634
▁escribió	-1635
▁gobierno	-1636
▁problemas	-1637
▁yanaparqa	-1638
pon	-1639
▁ir	-1640
▁mí	-1641
bios	-1642
taba	-1643
▁cel	-1644
▁cul	-1645
▁kim	-1646
▁kani	-1647
▁kiki	-1648
▁tras	-1649
unchik	-1650
▁humil	-1651
▁salva	-1652
▁waqay	-1653
▁chanin	-1654
▁dibujo	-1655
▁especi	-1656
▁humanos	-1657
▁principio	-1658
bo	-1659
fo	-1660
ér	-1661
pañ	-1662
▁año	-1663
▁div	-1664
▁gus	-1665
▁niq	-1666
▁habl	-1667
▁ofre	-1668
▁tend	-1669
charqa	-1670
▁amayá	-1671
▁mujer	-1672
▁veces	-1673
aykipaq	-1674
▁wiñaypaq	-1675
esa	-1676
ios	-1677
ocu	-1678
▁án	-1679
ayqa	-1680
pues	-1681
▁cer	-1682
▁lee	-1683
▁podr	-1684
▁aquel	-1685
▁enfer	-1686
▁kanku	-1687
▁amigos	-1688
▁esperan	-1689
▁ustedes	-1690
▁importan	-1691
▁kaqkunata	-1692
▁matrimonio	-1693
jas	-1694
lle	-1695
arus	-1696
mina	-1697
▁inf	-1698
▁raz	-1699
kuwan	-1700
▁actu	-1701
llanpi	-1702
miento	-1703
▁deben	-1704
▁luego	-1705
▁prote	-1706
▁sipas	-1707
▁super	-1708
asqanta	-1709
▁casara	-1710
▁preocu	-1711
▁runaqa	-1712
▁allinmi	-1713
▁posible	-1714
▁cristiana	-1715
ion	-1716
▁25	-1717
aria	-1718
gual	-1719
kuni	-1720
▁paz	-1721
▁vea	-1722
▁diri	-1723
▁eran	-1724
▁nada	-1725
encias	-1726
▁autor	-1727
▁exper	-1728
▁hamuq	-1729
isiones	-1730
▁moises	-1731
▁prover	-1732
kuyninta	-1733
llanchik	-1734
▁chaypim	-1735
▁kanapaq	-1736
wananchikpaq	-1737
▁bibliamanta	-1738
▁yanapawasun	-1739
niki	-1740
▁mask	-1741
▁timo	-1742
▁poder	-1743
▁reqsi	-1744
▁tomar	-1745
▁espiri	-1746
▁fueron	-1747
▁llegar	-1748
kuspanku	-1749
▁algunas	-1750
▁bautiza	-1751
▁timoteo	-1752
▁ancianos	-1753
▁bibliata	-1754
▁israelitas	-1755
▁kamachisqan	-1756
ron	-1757
ósi	-1758
chos	-1759
osos	-1760
span	-1761
▁gri	-1762
▁hor	-1763
▁pen	-1764
▁tak	-1765
punim	-1766
quier	-1767
ñachu	-1768
▁disf	-1769
▁ruwa	-1770
▁sido	-1771
▁mosoq	-1772
▁revel	-1773
▁ruraq	-1774
▁seres	-1775
▁trabaj	-1776
▁propósi	-1777
▁mantener	-1778
▁precursor	-1779
▁kasqankuta	-1780
cti	-1781
▁úl	-1782
▁200	-1783
warqa	-1784
▁arre	-1785
▁aten	-1786
▁imay	-1787
arurqa	-1788
ientos	-1789
▁judio	-1790
▁léase	-1791
▁paypa	-1792
▁riman	-1793
▁casado	-1794
▁disfru	-1795
▁quizás	-1796
▁runapa	-1797
▁veamos	-1798
▁tapukuy	-1799
▁mediante	-1800
▁yachasun	-1801
▁autoridad	-1802
▁siguiente	-1803
▁qawachirqa	-1804
▁willakusqan	-1805
gó	-1806
▁gob	-1807
▁som	-1808
▁leer	-1809
llaraq	-1810
▁claro	-1811
▁igual	-1812
▁kimsa	-1813
chikpas	-1814
▁contes	-1815
▁guerra	-1816
▁siente	-1817
▁ilustra	-1818
▁justicia	-1819
▁proverbios	-1820
fes	-1821
mar	-1822
tran	-1823
▁201	-1824
▁din	-1825
gamos	-1826
▁apaq	-1827
aspaqa	-1828
▁chask	-1829
▁ejemp	-1830
▁reali	-1831
▁nuevas	-1832
▁estaban	-1833
▁agradece	-1834
▁llaqtapi	-1835
▁espiritun	-1836
▁ministerio	-1837
pe	-1838
pen	-1839
udad	-1840
▁unay	-1841
chikpi	-1842
kuywan	-1843
urqani	-1844
▁corin	-1845
▁madre	-1846
▁nisqa	-1847
▁según	-1848
▁wañuy	-1849
▁dinero	-1850
▁diospi	-1851
▁imataq	-1852
▁momento	-1853
▁respues	-1854
▁trabajo	-1855
anchikchu	-1856
▁sacerdote	-1857
▁hinaptinqa	-1858
be	-1859
ya	-1860
▁mé	-1861
ados	-1862
▁dif	-1863
▁jov	-1864
▁envi	-1865
▁sien	-1866
▁wawq	-1867
▁panta	-1868
▁salom	-1869
asqanku	-1870
▁jesusmi	-1871
▁kaptinqa	-1872
▁kasqanku	-1873
▁servicio	-1874
▁situación	-1875
ger	-1876
lom	-1877
tró	-1878
yku	-1879
erta	-1880
▁gru	-1881
▁his	-1882
▁tes	-1883
antes	-1884
▁asuy	-1885
▁bete	-1886
▁duda	-1887
▁hora	-1888
▁ocas	-1889
▁esper	-1890
▁kayqa	-1891
▁kuska	-1892
▁ninku	-1893
kunanku	-1894
▁hapipa	-1895
▁kawsay	-1896
▁perfec	-1897
▁quiere	-1898
▁serviq	-1899
▁gracias	-1900
▁munarqa	-1901
▁respeto	-1902
kusqanmanta	-1903
cul	-1904
gro	-1905
▁23	-1906
▁lí	-1907
gani	-1908
tale	-1909
truc	-1910
▁evi	-1911
▁imi	-1912
▁nor	-1913
tados	-1914
▁cuál	-1915
▁debi	-1916
▁imam	-1917
▁tran	-1918
chirqa	-1919
ykipaq	-1920
▁kanan	-1921
▁miray	-1922
▁sacri	-1923
▁cuerpo	-1924
▁organi	-1925
anchikta	-1926
chkaptin	-1927
▁compren	-1928
▁fortale	-1929
▁jesusta	-1930
▁anchatam	-1931
▁bibliapi	-1932
▁runamasin	-1933
so	-1934
xi	-1935
tari	-1936
▁idi	-1937
▁kun	-1938
▁via	-1939
▁viv	-1940
uptin	-1941
▁kapu	-1942
▁país	-1943
▁tuvo	-1944
tasqan	-1945
▁joven	-1946
▁miemb	-1947
kuchwan	-1948
▁chaypi	-1949
a	-1950
▁	-1951
n	-1952
e	-1953
i	-1954
s	-1955
o	-1956
u	-1957
r	-1958
t	-1959
l	-1960
c	-1961
m	-1962
p	-1963
q	-1964
k	-1965
d	-1966
h	-1967
y	-1968
b	-1969
w	-1970
v	-1971
g	-1972
j	-1973
á	-1974
ñ	-1975
ó	-1976
f	-1977
í	-1978
é	-1979
z	-1980
1	-1981
2	-1982
ú	-1983
0	-1984
x	-1985
-	-1986
3	-1987
4	-1988
5	-1989
9	-1990
6	-1991
7	-1992
8	-1993
ü	-1994
'	-1995
